unsigned char emg_model[] = {
  0x1c, 0x00, 0x00, 0x00, 0x54, 0x46, 0x4c, 0x33, 0x14, 0x00, 0x20, 0x00, 
  0x1c, 0x00, 0x18, 0x00, 0x14, 0x00, 0x10, 0x00, 0x0c, 0x00, 0x00, 0x00, 
  0x08, 0x00, 0x04, 0x00, 0x14, 0x00, 0x00, 0x00, 0x1c, 0x00, 0x00, 0x00, 
  0x8c, 0x00, 0x00, 0x00, 0xe4, 0x00, 0x00, 0x00, 0x90, 0x07, 0x00, 0x00, 
  0xa0, 0x07, 0x00, 0x00, 0x20, 0x0d, 0x00, 0x00, 0x03, 0x00, 0x00, 0x00, 
  0x01, 0x00, 0x00, 0x00, 0x04, 0x00, 0x00, 0x00, 0x22, 0xf8, 0xff, 0xff, 
  0x0c, 0x00, 0x00, 0x00, 0x1c, 0x00, 0x00, 0x00, 0x3c, 0x00, 0x00, 0x00, 
  0x0f, 0x00, 0x00, 0x00, 0x73, 0x65, 0x72, 0x76, 0x69, 0x6e, 0x67, 0x5f, 
  0x64, 0x65, 0x66, 0x61, 0x75, 0x6c, 0x74, 0x00, 0x01, 0x00, 0x00, 0x00, 
  0x04, 0x00, 0x00, 0x00, 0x90, 0xff, 0xff, 0xff, 0x0a, 0x00, 0x00, 0x00, 
  0x04, 0x00, 0x00, 0x00, 0x08, 0x00, 0x00, 0x00, 0x6f, 0x75, 0x74, 0x70, 
  0x75, 0x74, 0x5f, 0x30, 0x00, 0x00, 0x00, 0x00, 0x01, 0x00, 0x00, 0x00, 
  0x04, 0x00, 0x00, 0x00, 0x12, 0xf9, 0xff, 0xff, 0x04, 0x00, 0x00, 0x00, 
  0x0c, 0x00, 0x00, 0x00, 0x6b, 0x65, 0x72, 0x61, 0x73, 0x5f, 0x74, 0x65, 
  0x6e, 0x73, 0x6f, 0x72, 0x00, 0x00, 0x00, 0x00, 0x02, 0x00, 0x00, 0x00, 
  0x34, 0x00, 0x00, 0x00, 0x04, 0x00, 0x00, 0x00, 0xdc, 0xff, 0xff, 0xff, 
  0x0d, 0x00, 0x00, 0x00, 0x04, 0x00, 0x00, 0x00, 0x13, 0x00, 0x00, 0x00, 
  0x43, 0x4f, 0x4e, 0x56, 0x45, 0x52, 0x53, 0x49, 0x4f, 0x4e, 0x5f, 0x4d, 
  0x45, 0x54, 0x41, 0x44, 0x41, 0x54, 0x41, 0x00, 0x08, 0x00, 0x0c, 0x00, 
  0x08, 0x00, 0x04, 0x00, 0x08, 0x00, 0x00, 0x00, 0x0c, 0x00, 0x00, 0x00, 
  0x04, 0x00, 0x00, 0x00, 0x13, 0x00, 0x00, 0x00, 0x6d, 0x69, 0x6e, 0x5f, 
  0x72, 0x75, 0x6e, 0x74, 0x69, 0x6d, 0x65, 0x5f, 0x76, 0x65, 0x72, 0x73, 
  0x69, 0x6f, 0x6e, 0x00, 0x0e, 0x00, 0x00, 0x00, 0xa8, 0x06, 0x00, 0x00, 
  0xa0, 0x06, 0x00, 0x00, 0x70, 0x06, 0x00, 0x00, 0x54, 0x06, 0x00, 0x00, 
  0x24, 0x06, 0x00, 0x00, 0x14, 0x04, 0x00, 0x00, 0x04, 0x01, 0x00, 0x00, 
  0xb4, 0x00, 0x00, 0x00, 0xac, 0x00, 0x00, 0x00, 0xa4, 0x00, 0x00, 0x00, 
  0x9c, 0x00, 0x00, 0x00, 0x94, 0x00, 0x00, 0x00, 0x74, 0x00, 0x00, 0x00, 
  0x04, 0x00, 0x00, 0x00, 0xc6, 0xf9, 0xff, 0xff, 0x04, 0x00, 0x00, 0x00, 
  0x60, 0x00, 0x00, 0x00, 0x0c, 0x00, 0x00, 0x00, 0x08, 0x00, 0x0e, 0x00, 
  0x08, 0x00, 0x04, 0x00, 0x08, 0x00, 0x00, 0x00, 0x10, 0x00, 0x00, 0x00, 
  0x28, 0x00, 0x00, 0x00, 0x00, 0x00, 0x06, 0x00, 0x08, 0x00, 0x04, 0x00, 
  0x06, 0x00, 0x00, 0x00, 0x04, 0x00, 0x00, 0x00, 0x01, 0x00, 0x00, 0x00, 
  0xea, 0x03, 0x00, 0x00, 0x0c, 0x00, 0x18, 0x00, 0x14, 0x00, 0x10, 0x00, 
  0x0c, 0x00, 0x04, 0x00, 0x0c, 0x00, 0x00, 0x00, 0xae, 0xb4, 0x5d, 0xf1, 
  0xee, 0x87, 0xd0, 0xb8, 0x02, 0x00, 0x00, 0x00, 0x02, 0x00, 0x00, 0x00, 
  0x04, 0x00, 0x00, 0x00, 0x06, 0x00, 0x00, 0x00, 0x32, 0x2e, 0x32, 0x30, 
  0x2e, 0x30, 0x00, 0x00, 0x32, 0xfa, 0xff, 0xff, 0x04, 0x00, 0x00, 0x00, 
  0x10, 0x00, 0x00, 0x00, 0x31, 0x2e, 0x31, 0x34, 0x2e, 0x30, 0x00, 0x00, 
  0x00, 0x00, 0x00, 0x00, 0x00, 0x00, 0x00, 0x00, 0xb4, 0xf4, 0xff, 0xff, 
  0xb8, 0xf4, 0xff, 0xff, 0xbc, 0xf4, 0xff, 0xff, 0xc0, 0xf4, 0xff, 0xff, 
  0x5e, 0xfa, 0xff, 0xff, 0x04, 0x00, 0x00, 0x00, 0x40, 0x00, 0x00, 0x00, 
  0x68, 0xec, 0x7a, 0x3d, 0xcf, 0x8d, 0x4a, 0x3d, 0x55, 0x21, 0x04, 0x3d, 
  0x02, 0xee, 0xa2, 0xbd, 0x99, 0x76, 0xf0, 0x3d, 0xa9, 0x5f, 0xf7, 0x3d, 
  0x83, 0xe8, 0x2e, 0x3d, 0x6d, 0x34, 0x02, 0x3e, 0xca, 0x7f, 0x8f, 0x3d, 
  0x1b, 0x27, 0x4c, 0x3d, 0x48, 0x58, 0xd2, 0xbc, 0x4d, 0xd1, 0xef, 0x3d, 
  0x8d, 0xaf, 0xc9, 0x3d, 0xad, 0x8f, 0x83, 0xbd, 0x74, 0xf0, 0xdd, 0x3d, 
  0xc3, 0x57, 0x99, 0x3d, 0xaa, 0xfa, 0xff, 0xff, 0x04, 0x00, 0x00, 0x00, 
  0x00, 0x03, 0x00, 0x00, 0x92, 0x38, 0x15, 0x3e, 0xa1, 0x31, 0xc8, 0xbe, 
  0x99, 0x38, 0x66, 0xbe, 0x89, 0x4a, 0x91, 0x3d, 0x1b, 0x89, 0x91, 0xbc, 
  0xa2, 0x9b, 0x37, 0x3d, 0x8b, 0xcf, 0x8b, 0xbd, 0xb5, 0x9a, 0xa1, 0xbe, 
  0x1c, 0xb6, 0xc9, 0xbe, 0x19, 0x39, 0x36, 0xbe, 0x5c, 0x2c, 0x8c, 0xbd, 
  0x90, 0x85, 0xe9, 0x3e, 0x57, 0xe9, 0xa2, 0x3e, 0x87, 0xfa, 0xd4, 0x3e, 
  0x0d, 0x3a, 0x45, 0xbe, 0xac, 0x66, 0xa4, 0xbe, 0xb5, 0xa3, 0xf8, 0x3e, 
  0xfa, 0xc3, 0x19, 0x3d, 0x39, 0x64, 0xdc, 0xbd, 0x66, 0x6c, 0xc6, 0x3e, 
  0x0b, 0xfb, 0xd2, 0x3c, 0x92, 0xec, 0x5f, 0xbe, 0x04, 0x3d, 0xaa, 0xbe, 
  0x78, 0xf5, 0xd8, 0x3d, 0x45, 0xbb, 0xcc, 0x3e, 0x25, 0x6e, 0x87, 0x3e, 
  0xa1, 0xcc, 0xb7, 0x3e, 0x83, 0x1e, 0x89, 0x3d, 0x7d, 0x89, 0xa4, 0x3c, 
  0x38, 0x9b, 0x6f, 0x3e, 0x4a, 0xda, 0xdd, 0xb9, 0x63, 0xb9, 0xaa, 0x3e, 
  0x86, 0x85, 0xf5, 0xbd, 0x88, 0x3f, 0xb8, 0xbe, 0xa6, 0x9c, 0x85, 0x3e, 
  0x44, 0xe4, 0x70, 0xbd, 0x85, 0x7d, 0x93, 0xbe, 0x20, 0x33, 0x92, 0xbe, 
  0x23, 0xb7, 0x51, 0x3e, 0x00, 0xdd, 0x05, 0x3e, 0xad, 0x40, 0x8a, 0x3e, 
  0xfc, 0x10, 0x31, 0x3e, 0xfc, 0x69, 0x05, 0xbe, 0x46, 0x66, 0xd1, 0xbe, 
  0xd7, 0x08, 0x69, 0x3e, 0xc5, 0xe6, 0xed, 0x3d, 0x48, 0x67, 0xc9, 0x3e, 
  0x7e, 0x0b, 0x7b, 0xbd, 0x59, 0x7a, 0xb5, 0xbe, 0xbc, 0x92, 0x6a, 0x3e, 
  0x31, 0x67, 0x32, 0x3e, 0x0b, 0x38, 0x92, 0x3e, 0xc0, 0x98, 0xaf, 0x3e, 
  0xec, 0x28, 0x54, 0x3e, 0x49, 0x99, 0xa4, 0xbe, 0x8b, 0xb9, 0xa3, 0x3e, 
  0x46, 0x86, 0xa7, 0xbe, 0xfc, 0xb9, 0xc2, 0x3e, 0x17, 0xaf, 0xfb, 0x3e, 
  0x7b, 0xb1, 0xdf, 0xbe, 0x99, 0xc4, 0xa4, 0x3e, 0x98, 0xb3, 0xe6, 0xbe, 
  0x9c, 0x2e, 0xf4, 0x3d, 0xca, 0x4c, 0xdd, 0xbe, 0x60, 0xd8, 0xe7, 0xbe, 
  0x3c, 0xfd, 0xf4, 0xbd, 0xc6, 0xa1, 0xf6, 0x3c, 0xdb, 0x31, 0xcf, 0xbc, 
  0x0a, 0x46, 0x2c, 0x3b, 0xfc, 0x54, 0xc6, 0xbe, 0x2b, 0xa1, 0x01, 0x3e, 
  0xac, 0x8e, 0x4c, 0x3e, 0x80, 0xf4, 0x4e, 0x3e, 0xfb, 0xff, 0xb0, 0xbe, 
  0xdf, 0x57, 0x8d, 0x3d, 0xae, 0x3e, 0xfb, 0x3e, 0x86, 0x5e, 0xcf, 0xbd, 
  0x0b, 0xa3, 0x63, 0xbe, 0x46, 0x6c, 0x50, 0x3e, 0x1a, 0x93, 0x89, 0xbe, 
  0x19, 0x4e, 0xa5, 0xbe, 0x72, 0xb5, 0x08, 0xbe, 0xde, 0xf6, 0xc9, 0x3e, 
  0xf8, 0xb6, 0x3f, 0x3d, 0x52, 0xbb, 0x0b, 0xbf, 0xc2, 0x28, 0x02, 0x3f, 
  0x2d, 0x0c, 0xd3, 0x3e, 0xff, 0xb7, 0x66, 0x3e, 0x9e, 0x67, 0x46, 0xbe, 
  0xce, 0xaa, 0x82, 0x3d, 0xd4, 0xa5, 0xa6, 0xbe, 0xf3, 0x31, 0xbb, 0xbd, 
  0x75, 0x02, 0x97, 0x3d, 0xb8, 0xfc, 0x01, 0xbe, 0x28, 0xbf, 0x2b, 0x3d, 
  0x9f, 0x1e, 0xe3, 0xbe, 0x74, 0x4b, 0x0f, 0xbe, 0x8e, 0xff, 0x0d, 0x3e, 
  0x1c, 0x6a, 0x9f, 0x3e, 0x4b, 0x25, 0x90, 0xbd, 0xc3, 0x49, 0x11, 0x3e, 
  0xb5, 0x42, 0x13, 0x3e, 0x14, 0xee, 0xf0, 0x3e, 0xfd, 0x99, 0xb5, 0xbe, 
  0x87, 0xe7, 0x00, 0xbe, 0x52, 0x5b, 0xbb, 0x3d, 0x65, 0x10, 0xc1, 0x3e, 
  0x02, 0x05, 0xad, 0x3d, 0x0c, 0x38, 0x14, 0x3b, 0x01, 0xf8, 0x02, 0x3f, 
  0x37, 0x79, 0x74, 0x3d, 0x51, 0xa5, 0x99, 0x3d, 0x09, 0xab, 0x6a, 0xbe, 
  0xea, 0xb9, 0x92, 0x3e, 0xfb, 0x9b, 0xd2, 0xbd, 0x33, 0x6a, 0x92, 0xbe, 
  0x5d, 0xe8, 0x0a, 0xbd, 0xea, 0x91, 0x5d, 0xbe, 0xb6, 0x52, 0x5e, 0x3e, 
  0x76, 0x22, 0x9f, 0xbe, 0x07, 0x1d, 0x15, 0xbe, 0xd3, 0x0b, 0x91, 0x3e, 
  0x4a, 0x39, 0x8c, 0xbd, 0x31, 0x9e, 0x4b, 0xbe, 0xe9, 0x11, 0x98, 0x3e, 
  0xfc, 0xd1, 0xd6, 0xbe, 0x6f, 0xfc, 0xaa, 0xbe, 0xbb, 0x8c, 0xa3, 0xbe, 
  0xea, 0x2e, 0x9c, 0xbe, 0x34, 0x7a, 0xa7, 0x3e, 0x5b, 0x3c, 0xc0, 0xbe, 
  0x40, 0x34, 0xc8, 0x3e, 0x1d, 0x3c, 0x06, 0xbf, 0xeb, 0x77, 0x2c, 0xbc, 
  0xc9, 0x90, 0x57, 0x3c, 0x42, 0x8a, 0xa1, 0x3c, 0x9c, 0xf8, 0xaa, 0x3d, 
  0xff, 0x25, 0xc0, 0x3e, 0x7d, 0x1a, 0xd7, 0x3d, 0x6a, 0x9c, 0x04, 0x3e, 
  0x7e, 0x17, 0x90, 0xbe, 0x18, 0x73, 0x9a, 0x3e, 0xe0, 0xe8, 0x14, 0x3d, 
  0x69, 0xf9, 0xcc, 0xbe, 0x66, 0x8f, 0xad, 0x3d, 0x1d, 0xd3, 0xf3, 0xbe, 
  0x17, 0xdc, 0xdd, 0xbe, 0x59, 0x94, 0xe0, 0x3d, 0xb9, 0xc5, 0x89, 0xbe, 
  0x92, 0x34, 0x4c, 0xbe, 0x25, 0xb7, 0x80, 0xbe, 0x67, 0x90, 0xcb, 0xbe, 
  0xc5, 0xf2, 0x5f, 0xbe, 0x9b, 0x0a, 0xe0, 0x3d, 0xd2, 0x9d, 0x0d, 0xbf, 
  0x8b, 0x9a, 0x19, 0x3e, 0xa4, 0x18, 0x70, 0x3b, 0xe9, 0xdb, 0x9f, 0xbe, 
  0xd2, 0xc9, 0xa4, 0x3d, 0x65, 0x9d, 0xbc, 0x3e, 0x03, 0xe8, 0x86, 0xbd, 
  0x92, 0x8a, 0xbc, 0xbd, 0xf7, 0xb4, 0xa9, 0x3e, 0x35, 0x7d, 0x9a, 0x3e, 
  0x68, 0x20, 0xc3, 0x3e, 0x49, 0x0e, 0x84, 0x3d, 0x90, 0x69, 0xcb, 0x3e, 
  0xa9, 0x00, 0xc1, 0xbe, 0x87, 0x2c, 0xd0, 0x3e, 0xdf, 0xfa, 0xec, 0xbe, 
  0x41, 0xc3, 0xd0, 0xbe, 0xb7, 0x63, 0xb2, 0xbd, 0x3d, 0x68, 0x04, 0xbf, 
  0x7c, 0x3d, 0x0f, 0xbf, 0x46, 0x15, 0x11, 0xbf, 0xa6, 0xcf, 0x20, 0xbe, 
  0xb6, 0x16, 0xe4, 0x3e, 0x0f, 0xc4, 0x9d, 0xbd, 0x40, 0xe5, 0x3a, 0x3e, 
  0x5e, 0xab, 0x96, 0x3c, 0x05, 0x8d, 0xf9, 0xbe, 0x55, 0x9e, 0xc7, 0x3e, 
  0x03, 0x02, 0x12, 0x3e, 0x85, 0xdd, 0xce, 0x3e, 0xf0, 0x33, 0x8d, 0xbc, 
  0xfd, 0xe7, 0xf0, 0x3e, 0x5e, 0xfe, 0xd3, 0x3d, 0xda, 0xf3, 0x5c, 0x3e, 
  0xc4, 0xd1, 0x8c, 0x3e, 0xaf, 0x63, 0x44, 0x3e, 0x60, 0xcd, 0xa7, 0x3c, 
  0x10, 0xfd, 0x42, 0xbe, 0xb6, 0xfd, 0xff, 0xff, 0x04, 0x00, 0x00, 0x00, 
  0x00, 0x02, 0x00, 0x00, 0x4a, 0x6a, 0xb1, 0x3d, 0xe2, 0x67, 0x4c, 0x3e, 
  0xca, 0x88, 0x33, 0xbe, 0x73, 0xa1, 0xd4, 0xbe, 0x33, 0xbf, 0x8b, 0x3d, 
  0x51, 0x07, 0x05, 0x3f, 0x29, 0xa7, 0x83, 0xbe, 0xc9, 0x6c, 0xad, 0x3b, 
  0xdb, 0x45, 0x8b, 0xbc, 0x01, 0x58, 0xb9, 0xbe, 0xee, 0x5d, 0xc7, 0x3e, 
  0x6a, 0xea, 0x40, 0xbd, 0x4a, 0xa4, 0x00, 0x3d, 0xd2, 0x16, 0x1a, 0x3b, 
  0xf0, 0xb6, 0x21, 0x3e, 0x65, 0x61, 0xcb, 0x3d, 0x59, 0x53, 0x2c, 0x3e, 
  0xcd, 0x82, 0xc3, 0xbc, 0x7f, 0xdd, 0xae, 0xbd, 0x41, 0x75, 0x15, 0xbe, 
  0xdf, 0xb1, 0xc2, 0xbe, 0xa6, 0x13, 0xb5, 0xbe, 0xf8, 0xd6, 0xa7, 0xbe, 
  0xc3, 0x8f, 0xeb, 0xbe, 0x1c, 0xd5, 0x8b, 0x3e, 0x8e, 0xaa, 0xc0, 0x3e, 
  0xee, 0x4b, 0x6e, 0x37, 0x3d, 0x7e, 0xbe, 0xbd, 0xd5, 0x88, 0x15, 0xbe, 
  0x66, 0xb1, 0x02, 0x3e, 0x70, 0xe0, 0x1d, 0xbe, 0x57, 0x69, 0xc0, 0x3e, 
  0xb5, 0xf1, 0x13, 0x3f, 0x7e, 0xdf, 0xad, 0x3d, 0x96, 0xa7, 0x5e, 0xbe, 
  0x43, 0x33, 0xc4, 0x3d, 0x32, 0x9e, 0x0c, 0xbf, 0xb4, 0xa6, 0x88, 0x3e, 
  0x94, 0xe0, 0xe6, 0x3e, 0x8e, 0x0a, 0x05, 0xbf, 0x63, 0xfd, 0x24, 0x3e, 
  0x78, 0xcd, 0xde, 0x3e, 0x67, 0xcd, 0xa7, 0x3e, 0xf3, 0xe9, 0x0b, 0x3d, 
  0xb4, 0x7b, 0xff, 0x3e, 0xc1, 0xd6, 0x4b, 0xbe, 0xd6, 0xcb, 0x9e, 0x3e, 
  0x64, 0x33, 0xf9, 0x3c, 0xb3, 0xe3, 0xce, 0x3c, 0x63, 0xec, 0xed, 0x3e, 
  0x4f, 0x57, 0x38, 0xbe, 0x13, 0x98, 0xb4, 0xbe, 0xd8, 0xc3, 0xbc, 0x3e, 
  0xbc, 0xa7, 0xb8, 0x3d, 0x7b, 0x48, 0x12, 0x3f, 0x90, 0xba, 0x9d, 0x3e, 
  0x5b, 0xcc, 0xf3, 0x3e, 0x17, 0xa8, 0xbd, 0x3b, 0x36, 0xfd, 0x89, 0x3e, 
  0x5c, 0x90, 0x9e, 0x3e, 0xbd, 0x0b, 0x8f, 0xbe, 0x81, 0x45, 0x43, 0xbe, 
  0x63, 0x12, 0xc1, 0xbe, 0x75, 0xce, 0x29, 0xbc, 0x9d, 0x84, 0x35, 0xbe, 
  0x36, 0x67, 0xcb, 0x3e, 0xaa, 0x48, 0xa1, 0x3e, 0xa3, 0xa2, 0x2e, 0xbd, 
  0x48, 0x84, 0x08, 0x3f, 0xc0, 0x55, 0x4a, 0xbe, 0xf3, 0x7f, 0xfe, 0x3e, 
  0x4c, 0x4d, 0x9c, 0x3d, 0xa3, 0xd3, 0xb9, 0x3c, 0x1b, 0x7b, 0x74, 0x3e, 
  0x68, 0x6e, 0xe0, 0x3d, 0x08, 0xb5, 0xb4, 0x3e, 0x0f, 0xce, 0x4f, 0xbe, 
  0xa6, 0x07, 0x04, 0xbe, 0x50, 0x6f, 0x42, 0xbd, 0xe5, 0xf6, 0xb1, 0x3e, 
  0xd0, 0x66, 0x94, 0xbe, 0x24, 0x78, 0x87, 0xbe, 0x05, 0x89, 0xe1, 0x3d, 
  0x34, 0xcf, 0x24, 0x3e, 0xae, 0x7d, 0xc2, 0xbd, 0x9b, 0x2c, 0x7c, 0x3d, 
  0x61, 0x16, 0x02, 0x3d, 0xe8, 0xd9, 0x03, 0xbf, 0x90, 0x45, 0xae, 0x3e, 
  0xbc, 0x6e, 0x08, 0xbe, 0x0a, 0xd8, 0xd3, 0x3e, 0x4e, 0x31, 0xaf, 0x3e, 
  0x2c, 0x52, 0x05, 0x3f, 0xd2, 0xd3, 0x63, 0xbe, 0x1f, 0x4b, 0x18, 0x3f, 
  0xc5, 0xf0, 0xcc, 0xbe, 0xd8, 0xa5, 0x9a, 0xbd, 0x94, 0xfb, 0x2e, 0xbe, 
  0xc0, 0xb1, 0x79, 0x3e, 0x69, 0x84, 0xa9, 0x3e, 0xb2, 0x21, 0xc6, 0xbd, 
  0x7d, 0x0e, 0x07, 0x3e, 0x38, 0x05, 0x36, 0xbe, 0xca, 0xe0, 0x62, 0x3e, 
  0xf2, 0x17, 0x02, 0x3f, 0x0a, 0xee, 0xaf, 0x3e, 0x9f, 0xae, 0xc9, 0x3d, 
  0x4f, 0x35, 0x06, 0xbd, 0x1e, 0xea, 0x08, 0xbc, 0x53, 0x85, 0x83, 0xbe, 
  0x62, 0x49, 0xd9, 0xbe, 0x5a, 0xdf, 0xca, 0x3e, 0x42, 0x8c, 0xd6, 0x3c, 
  0x68, 0xcf, 0x9d, 0xbe, 0x22, 0x93, 0xf2, 0x3e, 0x36, 0x3c, 0xa5, 0xbd, 
  0x22, 0x62, 0x71, 0x3e, 0x29, 0xcf, 0xd2, 0xbe, 0x7a, 0x08, 0xa1, 0xbe, 
  0x1f, 0x85, 0x0a, 0x3f, 0xd8, 0x81, 0x30, 0x3e, 0x5e, 0xd3, 0xf2, 0x3e, 
  0x11, 0xe9, 0x9f, 0xbe, 0x45, 0x38, 0x0e, 0x3f, 0xb7, 0x15, 0xf5, 0xbe, 
  0xb4, 0x32, 0x94, 0x3e, 0x38, 0x90, 0x63, 0x3e, 0x72, 0x01, 0x00, 0x3f, 
  0xc2, 0xff, 0xff, 0xff, 0x04, 0x00, 0x00, 0x00, 0x20, 0x00, 0x00, 0x00, 
  0x40, 0xc9, 0x74, 0x3e, 0xae, 0xba, 0x0e, 0x3f, 0xd8, 0xf4, 0xd0, 0x3e, 
  0x02, 0x24, 0xdf, 0xbe, 0x8a, 0x5c, 0x04, 0xbe, 0x21, 0x03, 0x83, 0x3e, 
  0xc0, 0x4a, 0x55, 0xbe, 0x34, 0x03, 0x5f, 0xbf, 0xee, 0xff, 0xff, 0xff, 
  0x04, 0x00, 0x00, 0x00, 0x04, 0x00, 0x00, 0x00, 0xa0, 0x70, 0x5d, 0x3d, 
  0x00, 0x00, 0x06, 0x00, 0x08, 0x00, 0x04, 0x00, 0x06, 0x00, 0x00, 0x00, 
  0x04, 0x00, 0x00, 0x00, 0x20, 0x00, 0x00, 0x00, 0x00, 0x41, 0x05, 0x3d, 
  0x50, 0x82, 0x32, 0xbd, 0xb5, 0x27, 0xad, 0x3d, 0x0b, 0xe7, 0xf5, 0x3d, 
  0x53, 0xe1, 0x18, 0x3e, 0xaf, 0xe1, 0xcf, 0x3c, 0xf4, 0x33, 0x34, 0x3e, 
  0x27, 0xf3, 0x9e, 0x3d, 0x98, 0xfa, 0xff, 0xff, 0x9c, 0xfa, 0xff, 0xff, 
  0x0f, 0x00, 0x00, 0x00, 0x4d, 0x4c, 0x49, 0x52, 0x20, 0x43, 0x6f, 0x6e, 
  0x76, 0x65, 0x72, 0x74, 0x65, 0x64, 0x2e, 0x00, 0x01, 0x00, 0x00, 0x00, 
  0x14, 0x00, 0x00, 0x00, 0x00, 0x00, 0x0e, 0x00, 0x18, 0x00, 0x14, 0x00, 
  0x10, 0x00, 0x0c, 0x00, 0x08, 0x00, 0x04, 0x00, 0x0e, 0x00, 0x00, 0x00, 
  0x14, 0x00, 0x00, 0x00, 0x1c, 0x00, 0x00, 0x00, 0x08, 0x01, 0x00, 0x00, 
  0x0c, 0x01, 0x00, 0x00, 0x10, 0x01, 0x00, 0x00, 0x04, 0x00, 0x00, 0x00, 
  0x6d, 0x61, 0x69, 0x6e, 0x00, 0x00, 0x00, 0x00, 0x04, 0x00, 0x00, 0x00, 
  0xb0, 0x00, 0x00, 0x00, 0x68, 0x00, 0x00, 0x00, 0x34, 0x00, 0x00, 0x00, 
  0x10, 0x00, 0x00, 0x00, 0x00, 0x00, 0x0a, 0x00, 0x10, 0x00, 0x0c, 0x00, 
  0x08, 0x00, 0x04, 0x00, 0x0a, 0x00, 0x00, 0x00, 0x0c, 0x00, 0x00, 0x00, 
  0x10, 0x00, 0x00, 0x00, 0x01, 0x00, 0x00, 0x00, 0x01, 0x00, 0x00, 0x00, 
  0x0a, 0x00, 0x00, 0x00, 0x01, 0x00, 0x00, 0x00, 0x09, 0x00, 0x00, 0x00, 
  0x9a, 0xff, 0xff, 0xff, 0x10, 0x00, 0x00, 0x00, 0x00, 0x00, 0x00, 0x08, 
  0x0c, 0x00, 0x00, 0x00, 0x10, 0x00, 0x00, 0x00, 0x44, 0xfb, 0xff, 0xff, 
  0x01, 0x00, 0x00, 0x00, 0x09, 0x00, 0x00, 0x00, 0x03, 0x00, 0x00, 0x00, 
  0x08, 0x00, 0x00, 0x00, 0x03, 0x00, 0x00, 0x00, 0x02, 0x00, 0x00, 0x00, 
  0xca, 0xff, 0xff, 0xff, 0x10, 0x00, 0x00, 0x00, 0x00, 0x00, 0x00, 0x08, 
  0x10, 0x00, 0x00, 0x00, 0x14, 0x00, 0x00, 0x00, 0xba, 0xff, 0xff, 0xff, 
  0x00, 0x00, 0x00, 0x01, 0x01, 0x00, 0x00, 0x00, 0x08, 0x00, 0x00, 0x00, 
  0x03, 0x00, 0x00, 0x00, 0x07, 0x00, 0x00, 0x00, 0x04, 0x00, 0x00, 0x00, 
  0x01, 0x00, 0x00, 0x00, 0x00, 0x00, 0x0e, 0x00, 0x16, 0x00, 0x00, 0x00, 
  0x10, 0x00, 0x0c, 0x00, 0x0b, 0x00, 0x04, 0x00, 0x0e, 0x00, 0x00, 0x00, 
  0x18, 0x00, 0x00, 0x00, 0x00, 0x00, 0x00, 0x08, 0x18, 0x00, 0x00, 0x00, 
  0x1c, 0x00, 0x00, 0x00, 0x00, 0x00, 0x06, 0x00, 0x08, 0x00, 0x07, 0x00, 
  0x06, 0x00, 0x00, 0x00, 0x00, 0x00, 0x00, 0x01, 0x01, 0x00, 0x00, 0x00, 
  0x07, 0x00, 0x00, 0x00, 0x03, 0x00, 0x00, 0x00, 0x00, 0x00, 0x00, 0x00, 
  0x05, 0x00, 0x00, 0x00, 0x06, 0x00, 0x00, 0x00, 0x01, 0x00, 0x00, 0x00, 
  0x0a, 0x00, 0x00, 0x00, 0x01, 0x00, 0x00, 0x00, 0x00, 0x00, 0x00, 0x00, 
  0x0b, 0x00, 0x00, 0x00, 0xe4, 0x03, 0x00, 0x00, 0x90, 0x03, 0x00, 0x00, 
  0x3c, 0x03, 0x00, 0x00, 0xfc, 0x02, 0x00, 0x00, 0xbc, 0x02, 0x00, 0x00, 
  0x70, 0x02, 0x00, 0x00, 0x0c, 0x02, 0x00, 0x00, 0x78, 0x01, 0x00, 0x00, 
  0xdc, 0x00, 0x00, 0x00, 0x60, 0x00, 0x00, 0x00, 0x04, 0x00, 0x00, 0x00, 
  0x5e, 0xfc, 0xff, 0xff, 0x00, 0x00, 0x00, 0x01, 0x14, 0x00, 0x00, 0x00, 
  0x1c, 0x00, 0x00, 0x00, 0x1c, 0x00, 0x00, 0x00, 0x0b, 0x00, 0x00, 0x00, 
  0x34, 0x00, 0x00, 0x00, 0x02, 0x00, 0x00, 0x00, 0xff, 0xff, 0xff, 0xff, 
  0x01, 0x00, 0x00, 0x00, 0x48, 0xfc, 0xff, 0xff, 0x1b, 0x00, 0x00, 0x00, 
  0x53, 0x74, 0x61, 0x74, 0x65, 0x66, 0x75, 0x6c, 0x50, 0x61, 0x72, 0x74, 
  0x69, 0x74, 0x69, 0x6f, 0x6e, 0x65, 0x64, 0x43, 0x61, 0x6c, 0x6c, 0x5f, 
  0x31, 0x3a, 0x30, 0x00, 0x02, 0x00, 0x00, 0x00, 0x01, 0x00, 0x00, 0x00, 
  0x01, 0x00, 0x00, 0x00, 0xb6, 0xfc, 0xff, 0xff, 0x00, 0x00, 0x00, 0x01, 
  0x14, 0x00, 0x00, 0x00, 0x1c, 0x00, 0x00, 0x00, 0x1c, 0x00, 0x00, 0x00, 
  0x0a, 0x00, 0x00, 0x00, 0x54, 0x00, 0x00, 0x00, 0x02, 0x00, 0x00, 0x00, 
  0xff, 0xff, 0xff, 0xff, 0x01, 0x00, 0x00, 0x00, 0xa0, 0xfc, 0xff, 0xff, 
  0x38, 0x00, 0x00, 0x00, 0x73, 0x65, 0x71, 0x75, 0x65, 0x6e, 0x74, 0x69, 
  0x61, 0x6c, 0x5f, 0x31, 0x2f, 0x64, 0x65, 0x6e, 0x73, 0x65, 0x5f, 0x32, 
  0x5f, 0x31, 0x2f, 0x4d, 0x61, 0x74, 0x4d, 0x75, 0x6c, 0x3b, 0x73, 0x65, 
  0x71, 0x75, 0x65, 0x6e, 0x74, 0x69, 0x61, 0x6c, 0x5f, 0x31, 0x2f, 0x64, 
  0x65, 0x6e, 0x73, 0x65, 0x5f, 0x32, 0x5f, 0x31, 0x2f, 0x41, 0x64, 0x64, 
  0x00, 0x00, 0x00, 0x00, 0x02, 0x00, 0x00, 0x00, 0x01, 0x00, 0x00, 0x00, 
  0x01, 0x00, 0x00, 0x00, 0x2e, 0xfd, 0xff, 0xff, 0x00, 0x00, 0x00, 0x01, 
  0x14, 0x00, 0x00, 0x00, 0x1c, 0x00, 0x00, 0x00, 0x1c, 0x00, 0x00, 0x00, 
  0x09, 0x00, 0x00, 0x00, 0x74, 0x00, 0x00, 0x00, 0x02, 0x00, 0x00, 0x00, 
  0xff, 0xff, 0xff, 0xff, 0x08, 0x00, 0x00, 0x00, 0x18, 0xfd, 0xff, 0xff, 
  0x58, 0x00, 0x00, 0x00, 0x73, 0x65, 0x71, 0x75, 0x65, 0x6e, 0x74, 0x69, 
  0x61, 0x6c, 0x5f, 0x31, 0x2f, 0x64, 0x65, 0x6e, 0x73, 0x65, 0x5f, 0x31, 
  0x5f, 0x32, 0x2f, 0x4d, 0x61, 0x74, 0x4d, 0x75, 0x6c, 0x3b, 0x73, 0x65, 
  0x71, 0x75, 0x65, 0x6e, 0x74, 0x69, 0x61, 0x6c, 0x5f, 0x31, 0x2f, 0x64, 
  0x65, 0x6e, 0x73, 0x65, 0x5f, 0x31, 0x5f, 0x32, 0x2f, 0x52, 0x65, 0x6c, 
  0x75, 0x3b, 0x73, 0x65, 0x71, 0x75, 0x65, 0x6e, 0x74, 0x69, 0x61, 0x6c, 
  0x5f, 0x31, 0x2f, 0x64, 0x65, 0x6e, 0x73, 0x65, 0x5f, 0x31, 0x5f, 0x32, 
  0x2f, 0x42, 0x69, 0x61, 0x73, 0x41, 0x64, 0x64, 0x00, 0x00, 0x00, 0x00, 
  0x02, 0x00, 0x00, 0x00, 0x01, 0x00, 0x00, 0x00, 0x08, 0x00, 0x00, 0x00, 
  0xc6, 0xfd, 0xff, 0xff, 0x00, 0x00, 0x00, 0x01, 0x14, 0x00, 0x00, 0x00, 
  0x1c, 0x00, 0x00, 0x00, 0x1c, 0x00, 0x00, 0x00, 0x08, 0x00, 0x00, 0x00, 
  0x6c, 0x00, 0x00, 0x00, 0x02, 0x00, 0x00, 0x00, 0xff, 0xff, 0xff, 0xff, 
  0x10, 0x00, 0x00, 0x00, 0xb0, 0xfd, 0xff, 0xff, 0x52, 0x00, 0x00, 0x00, 
  0x73, 0x65, 0x71, 0x75, 0x65, 0x6e, 0x74, 0x69, 0x61, 0x6c, 0x5f, 0x31, 
  0x2f, 0x64, 0x65, 0x6e, 0x73, 0x65, 0x5f, 0x31, 0x2f, 0x4d, 0x61, 0x74, 
  0x4d, 0x75, 0x6c, 0x3b, 0x73, 0x65, 0x71, 0x75, 0x65, 0x6e, 0x74, 0x69, 
  0x61, 0x6c, 0x5f, 0x31, 0x2f, 0x64, 0x65, 0x6e, 0x73, 0x65, 0x5f, 0x31, 
  0x2f, 0x52, 0x65, 0x6c, 0x75, 0x3b, 0x73, 0x65, 0x71, 0x75, 0x65, 0x6e, 
  0x74, 0x69, 0x61, 0x6c, 0x5f, 0x31, 0x2f, 0x64, 0x65, 0x6e, 0x73, 0x65, 
  0x5f, 0x31, 0x2f, 0x42, 0x69, 0x61, 0x73, 0x41, 0x64, 0x64, 0x00, 0x00, 
  0x02, 0x00, 0x00, 0x00, 0x01, 0x00, 0x00, 0x00, 0x10, 0x00, 0x00, 0x00, 
  0xa6, 0xfe, 0xff, 0xff, 0x00, 0x00, 0x00, 0x01, 0x10, 0x00, 0x00, 0x00, 
  0x10, 0x00, 0x00, 0x00, 0x07, 0x00, 0x00, 0x00, 0x44, 0x00, 0x00, 0x00, 
  0x30, 0xfe, 0xff, 0xff, 0x36, 0x00, 0x00, 0x00, 0x73, 0x65, 0x71, 0x75, 
  0x65, 0x6e, 0x74, 0x69, 0x61, 0x6c, 0x5f, 0x31, 0x2f, 0x64, 0x65, 0x6e, 
  0x73, 0x65, 0x5f, 0x31, 0x2f, 0x52, 0x65, 0x6c, 0x75, 0x3b, 0x73, 0x65, 
  0x71, 0x75, 0x65, 0x6e, 0x74, 0x69, 0x61, 0x6c, 0x5f, 0x31, 0x2f, 0x64, 
  0x65, 0x6e, 0x73, 0x65, 0x5f, 0x31, 0x2f, 0x42, 0x69, 0x61, 0x73, 0x41, 
  0x64, 0x64, 0x00, 0x00, 0x01, 0x00, 0x00, 0x00, 0x10, 0x00, 0x00, 0x00, 
  0x06, 0xff, 0xff, 0xff, 0x00, 0x00, 0x00, 0x01, 0x10, 0x00, 0x00, 0x00, 
  0x10, 0x00, 0x00, 0x00, 0x06, 0x00, 0x00, 0x00, 0x28, 0x00, 0x00, 0x00, 
  0x90, 0xfe, 0xff, 0xff, 0x1b, 0x00, 0x00, 0x00, 0x73, 0x65, 0x71, 0x75, 
  0x65, 0x6e, 0x74, 0x69, 0x61, 0x6c, 0x5f, 0x31, 0x2f, 0x64, 0x65, 0x6e, 
  0x73, 0x65, 0x5f, 0x31, 0x2f, 0x4d, 0x61, 0x74, 0x4d, 0x75, 0x6c, 0x00, 
  0x02, 0x00, 0x00, 0x00, 0x10, 0x00, 0x00, 0x00, 0x0c, 0x00, 0x00, 0x00, 
  0x4e, 0xff, 0xff, 0xff, 0x00, 0x00, 0x00, 0x01, 0x10, 0x00, 0x00, 0x00, 
  0x10, 0x00, 0x00, 0x00, 0x05, 0x00, 0x00, 0x00, 0x1c, 0x00, 0x00, 0x00, 
  0xd8, 0xfe, 0xff, 0xff, 0x0f, 0x00, 0x00, 0x00, 0x61, 0x72, 0x69, 0x74, 
  0x68, 0x2e, 0x63, 0x6f, 0x6e, 0x73, 0x74, 0x61, 0x6e, 0x74, 0x33, 0x00, 
  0x02, 0x00, 0x00, 0x00, 0x08, 0x00, 0x00, 0x00, 0x10, 0x00, 0x00, 0x00, 
  0x8a, 0xff, 0xff, 0xff, 0x00, 0x00, 0x00, 0x01, 0x10, 0x00, 0x00, 0x00, 
  0x10, 0x00, 0x00, 0x00, 0x04, 0x00, 0x00, 0x00, 0x1c, 0x00, 0x00, 0x00, 
  0x14, 0xff, 0xff, 0xff, 0x0f, 0x00, 0x00, 0x00, 0x61, 0x72, 0x69, 0x74, 
  0x68, 0x2e, 0x63, 0x6f, 0x6e, 0x73, 0x74, 0x61, 0x6e, 0x74, 0x32, 0x00, 
  0x02, 0x00, 0x00, 0x00, 0x01, 0x00, 0x00, 0x00, 0x08, 0x00, 0x00, 0x00, 
  0xc6, 0xff, 0xff, 0xff, 0x00, 0x00, 0x00, 0x01, 0x10, 0x00, 0x00, 0x00, 
  0x10, 0x00, 0x00, 0x00, 0x03, 0x00, 0x00, 0x00, 0x1c, 0x00, 0x00, 0x00, 
  0x50, 0xff, 0xff, 0xff, 0x0f, 0x00, 0x00, 0x00, 0x61, 0x72, 0x69, 0x74, 
  0x68, 0x2e, 0x63, 0x6f, 0x6e, 0x73, 0x74, 0x61, 0x6e, 0x74, 0x31, 0x00, 
  0x01, 0x00, 0x00, 0x00, 0x01, 0x00, 0x00, 0x00, 0x00, 0x00, 0x16, 0x00, 
  0x18, 0x00, 0x14, 0x00, 0x00, 0x00, 0x10, 0x00, 0x0c, 0x00, 0x08, 0x00, 
  0x00, 0x00, 0x00, 0x00, 0x00, 0x00, 0x07, 0x00, 0x16, 0x00, 0x00, 0x00, 
  0x00, 0x00, 0x00, 0x01, 0x10, 0x00, 0x00, 0x00, 0x10, 0x00, 0x00, 0x00, 
  0x02, 0x00, 0x00, 0x00, 0x1c, 0x00, 0x00, 0x00, 0xa0, 0xff, 0xff, 0xff, 
  0x0e, 0x00, 0x00, 0x00, 0x61, 0x72, 0x69, 0x74, 0x68, 0x2e, 0x63, 0x6f, 
  0x6e, 0x73, 0x74, 0x61, 0x6e, 0x74, 0x00, 0x00, 0x01, 0x00, 0x00, 0x00, 
  0x08, 0x00, 0x00, 0x00, 0x00, 0x00, 0x16, 0x00, 0x1c, 0x00, 0x18, 0x00, 
  0x00, 0x00, 0x14, 0x00, 0x10, 0x00, 0x0c, 0x00, 0x00, 0x00, 0x00, 0x00, 
  0x08, 0x00, 0x07, 0x00, 0x16, 0x00, 0x00, 0x00, 0x00, 0x00, 0x00, 0x01, 
  0x14, 0x00, 0x00, 0x00, 0x20, 0x00, 0x00, 0x00, 0x20, 0x00, 0x00, 0x00, 
  0x01, 0x00, 0x00, 0x00, 0x3c, 0x00, 0x00, 0x00, 0x02, 0x00, 0x00, 0x00, 
  0xff, 0xff, 0xff, 0xff, 0x0c, 0x00, 0x00, 0x00, 0x04, 0x00, 0x04, 0x00, 
  0x04, 0x00, 0x00, 0x00, 0x1e, 0x00, 0x00, 0x00, 0x73, 0x65, 0x72, 0x76, 
  0x69, 0x6e, 0x67, 0x5f, 0x64, 0x65, 0x66, 0x61, 0x75, 0x6c, 0x74, 0x5f, 
  0x6b, 0x65, 0x72, 0x61, 0x73, 0x5f, 0x74, 0x65, 0x6e, 0x73, 0x6f, 0x72, 
  0x3a, 0x30, 0x00, 0x00, 0x02, 0x00, 0x00, 0x00, 0x01, 0x00, 0x00, 0x00, 
  0x0c, 0x00, 0x00, 0x00, 0x02, 0x00, 0x00, 0x00, 0x20, 0x00, 0x00, 0x00, 
  0x04, 0x00, 0x00, 0x00, 0xf4, 0xff, 0xff, 0xff, 0x0e, 0x00, 0x00, 0x00, 
  0x00, 0x00, 0x00, 0x0e, 0x0c, 0x00, 0x0c, 0x00, 0x0b, 0x00, 0x00, 0x00, 
  0x00, 0x00, 0x04, 0x00, 0x0c, 0x00, 0x00, 0x00, 0x09, 0x00, 0x00, 0x00, 
  0x00, 0x00, 0x00, 0x09, 
};
unsigned int emg_model_len = 3460;